00000000
00000001
00000002
00000003
00000004
00000005
00000006
00000007
00000008
00000009
0000000a
0000000b
0000000c
0000000d
0000000e
0000000f
00000010
00000011
00000012
00000013
00000014
00000015
00000016
00000017
00000018
00000019
0000001a
0000001b
0000001c
0000001d
0000001e
0000001f
00000020
00000021
00000022
00000023
00000024
00000025
00000026
00000027
00000028
00000029
0000002a
0000002b
0000002c
0000002d
0000002e
0000002f
00000030
00000031
00000032
00000033
00000034
00000035
00000036
00000037
00000038
00000039
0000003a
0000003b
0000003c
0000003d
0000003e
0000003f
00000040
00000041
00000042
00000043
00000044
00000045
00000046
00000047
00000048
00000049
0000004a
0000004b
0000004c
0000004d
0000004e
0000004f
00000050
00000051
00000052
00000053
00000054
00000055
00000056
00000057
00000058
00000059
0000005a
0000005b
0000005c
0000005d
0000005e
0000005f
00000060
00000061
00000062
00000063
00000064
00000065
00000066
00000067
00000068
00000069
0000006a
0000006b
0000006c
0000006d
0000006e
0000006f
00000070
00000071
00000072
00000073
00000074
00000075
00000076
00000077
00000078
00000079
0000007a
0000007b
0000007c
0000007d
0000007e
0000007f
00000080
00000081
00000082
00000083
00000084
00000085
00000086
00000087
00000088
00000089
0000008a
0000008b
0000008c
0000008d
0000008e
0000008f
00000090
00000091
00000092
00000093
00000094
00000095
00000096
00000097
00000098
00000099
0000009a
0000009b
0000009c
0000009d
0000009e
0000009f
000000a0
000000a1
000000a2
000000a3
000000a4
000000a5
000000a6
000000a7
000000a8
000000a9
000000aa
000000ab
000000ac
000000ad
000000ae
000000af
000000b0
000000b1
000000b2
000000b3
000000b4
000000b5
000000b6
000000b7
000000b8
000000b9
000000ba
000000bb
000000bc
000000bd
000000be
000000bf
000000c0
000000c1
000000c2
000000c3
000000c4
000000c5
000000c6
000000c7
000000c8
000000c9
000000ca
000000cb
000000cc
000000cd
000000ce
000000cf
000000d0
000000d1
000000d2
000000d3
000000d4
000000d5
000000d6
000000d7
000000d8
000000d9
000000da
000000db
000000dc
000000dd
000000de
000000df
000000e0
000000e1
000000e2
000000e3
000000e4
000000e5
000000e6
000000e7
000000e8
000000e9
000000ea
000000eb
000000ec
000000ed
000000ee
000000ef
000000f0
000000f1
000000f2
000000f3
000000f4
000000f5
000000f6
000000f7
000000f8
000000f9
000000fa
000000fb
000000fc
000000fd
000000fe
000000ff
00001000
00001001
00001002
00001003
00001004
00001005
00001006
00001007
00001008
00001009
0000100a
0000100b
0000100c
0000100d
0000100e
0000100f
00001010
00001011
00001012
00001013
00001014
00001015
00001016
00001017
00001018
00001019
0000101a
0000101b
0000101c
0000101d
0000101e
0000101f
00001020
00001021
00001022
00001023
00001024
00001025
00001026
00001027
00001028
00001029
0000102a
0000102b
0000102c
0000102d
0000102e
0000102f
00001030
00001031
00001032
00001033
00001034
00001035
00001036
00001037
00001038
00001039
0000103a
0000103b
0000103c
0000103d
0000103e
0000103f
00001040
00001041
00001042
00001043
00001044
00001045
00001046
00001047
00001048
00001049
0000104a
0000104b
0000104c
0000104d
0000104e
0000104f
00001050
00001051
00001052
00001053
00001054
00001055
00001056
00001057
00001058
00001059
0000105a
0000105b
0000105c
0000105d
0000105e
0000105f
00001060
00001061
00001062
00001063
00001064
00001065
00001066
00001067
00001068
00001069
0000106a
0000106b
0000106c
0000106d
0000106e
0000106f
00001070
00001071
00001072
00001073
00001074
00001075
00001076
00001077
00001078
00001079
0000107a
0000107b
0000107c
0000107d
0000107e
0000107f
00001080
00001081
00001082
00001083
00001084
00001085
00001086
00001087
00001088
00001089
0000108a
0000108b
0000108c
0000108d
0000108e
0000108f
00001090
00001091
00001092
00001093
00001094
00001095
00001096
00001097
00001098
00001099
0000109a
0000109b
0000109c
0000109d
0000109e
0000109f
000010a0
000010a1
000010a2
000010a3
000010a4
000010a5
000010a6
000010a7
000010a8
000010a9
000010aa
000010ab
000010ac
000010ad
000010ae
000010af
000010b0
000010b1
000010b2
000010b3
000010b4
000010b5
000010b6
000010b7
000010b8
000010b9
000010ba
000010bb
000010bc
000010bd
000010be
000010bf
000010c0
000010c1
000010c2
000010c3
000010c4
000010c5
000010c6
000010c7
000010c8
000010c9
000010ca
000010cb
000010cc
000010cd
000010ce
000010cf
000010d0
000010d1
000010d2
000010d3
000010d4
000010d5
000010d6
000010d7
000010d8
000010d9
000010da
000010db
000010dc
000010dd
000010de
000010df
000010e0
000010e1
000010e2
000010e3
000010e4
000010e5
000010e6
000010e7
000010e8
000010e9
000010ea
000010eb
000010ec
000010ed
000010ee
000010ef
000010f0
000010f1
000010f2
000010f3
000010f4
000010f5
000010f6
000010f7
000010f8
000010f9
000010fa
000010fb
000010fc
000010fd
000010fe
000010ff
00002000
00002001
00002002
00002003
00002004
00002005
00002006
00002007
00002008
00002009
0000200a
0000200b
0000200c
0000200d
0000200e
0000200f
00002010
00002011
00002012
00002013
00002014
00002015
00002016
00002017
00002018
00002019
0000201a
0000201b
0000201c
0000201d
0000201e
0000201f
00002020
00002021
00002022
00002023
00002024
00002025
00002026
00002027
00002028
00002029
0000202a
0000202b
0000202c
0000202d
0000202e
0000202f
00002030
00002031
00002032
00002033
00002034
00002035
00002036
00002037
00002038
00002039
0000203a
0000203b
0000203c
0000203d
0000203e
0000203f
00002040
00002041
00002042
00002043
00002044
00002045
00002046
00002047
00002048
00002049
0000204a
0000204b
0000204c
0000204d
0000204e
0000204f
00002050
00002051
00002052
00002053
00002054
00002055
00002056
00002057
00002058
00002059
0000205a
0000205b
0000205c
0000205d
0000205e
0000205f
00002060
00002061
00002062
00002063
00002064
00002065
00002066
00002067
00002068
00002069
0000206a
0000206b
0000206c
0000206d
0000206e
0000206f
00002070
00002071
00002072
00002073
00002074
00002075
00002076
00002077
00002078
00002079
0000207a
0000207b
0000207c
0000207d
0000207e
0000207f
00002080
00002081
00002082
00002083
00002084
00002085
00002086
00002087
00002088
00002089
0000208a
0000208b
0000208c
0000208d
0000208e
0000208f
00002090
00002091
00002092
00002093
00002094
00002095
00002096
00002097
00002098
00002099
0000209a
0000209b
0000209c
0000209d
0000209e
0000209f
000020a0
000020a1
000020a2
000020a3
000020a4
000020a5
000020a6
000020a7
000020a8
000020a9
000020aa
000020ab
000020ac
000020ad
000020ae
000020af
000020b0
000020b1
000020b2
000020b3
000020b4
000020b5
000020b6
000020b7
000020b8
000020b9
000020ba
000020bb
000020bc
000020bd
000020be
000020bf
000020c0
000020c1
000020c2
000020c3
000020c4
000020c5
000020c6
000020c7
000020c8
000020c9
000020ca
000020cb
000020cc
000020cd
000020ce
000020cf
000020d0
000020d1
000020d2
000020d3
000020d4
000020d5
000020d6
000020d7
000020d8
000020d9
000020da
000020db
000020dc
000020dd
000020de
000020df
000020e0
000020e1
000020e2
000020e3
000020e4
000020e5
000020e6
000020e7
000020e8
000020e9
000020ea
000020eb
000020ec
000020ed
000020ee
000020ef
000020f0
000020f1
000020f2
000020f3
000020f4
000020f5
000020f6
000020f7
000020f8
000020f9
000020fa
000020fb
000020fc
000020fd
000020fe
000020ff
00003000
00003001
00003002
00003003
00003004
00003005
00003006
00003007
00003008
00003009
0000300a
0000300b
0000300c
0000300d
0000300e
0000300f
00003010
00003011
00003012
00003013
00003014
00003015
00003016
00003017
00003018
00003019
0000301a
0000301b
0000301c
0000301d
0000301e
0000301f
00003020
00003021
00003022
00003023
00003024
00003025
00003026
00003027
00003028
00003029
0000302a
0000302b
0000302c
0000302d
0000302e
0000302f
00003030
00003031
00003032
00003033
00003034
00003035
00003036
00003037
00003038
00003039
0000303a
0000303b
0000303c
0000303d
0000303e
0000303f
00003040
00003041
00003042
00003043
00003044
00003045
00003046
00003047
00003048
00003049
0000304a
0000304b
0000304c
0000304d
0000304e
0000304f
00003050
00003051
00003052
00003053
00003054
00003055
00003056
00003057
00003058
00003059
0000305a
0000305b
0000305c
0000305d
0000305e
0000305f
00003060
00003061
00003062
00003063
00003064
00003065
00003066
00003067
00003068
00003069
0000306a
0000306b
0000306c
0000306d
0000306e
0000306f
00003070
00003071
00003072
00003073
00003074
00003075
00003076
00003077
00003078
00003079
0000307a
0000307b
0000307c
0000307d
0000307e
0000307f
00003080
00003081
00003082
00003083
00003084
00003085
00003086
00003087
00003088
00003089
0000308a
0000308b
0000308c
0000308d
0000308e
0000308f
00003090
00003091
00003092
00003093
00003094
00003095
00003096
00003097
00003098
00003099
0000309a
0000309b
0000309c
0000309d
0000309e
0000309f
000030a0
000030a1
000030a2
000030a3
000030a4
000030a5
000030a6
000030a7
000030a8
000030a9
000030aa
000030ab
000030ac
000030ad
000030ae
000030af
000030b0
000030b1
000030b2
000030b3
000030b4
000030b5
000030b6
000030b7
000030b8
000030b9
000030ba
000030bb
000030bc
000030bd
000030be
000030bf
000030c0
000030c1
000030c2
000030c3
000030c4
000030c5
000030c6
000030c7
000030c8
000030c9
000030ca
000030cb
000030cc
000030cd
000030ce
000030cf
000030d0
000030d1
000030d2
000030d3
000030d4
000030d5
000030d6
000030d7
000030d8
000030d9
000030da
000030db
000030dc
000030dd
000030de
000030df
000030e0
000030e1
000030e2
000030e3
000030e4
000030e5
000030e6
000030e7
000030e8
000030e9
000030ea
000030eb
000030ec
000030ed
000030ee
000030ef
000030f0
000030f1
000030f2
000030f3
000030f4
000030f5
000030f6
000030f7
000030f8
000030f9
000030fa
000030fb
000030fc
000030fd
000030fe
000030ff
00004000
00004001
00004002
00004003
00004004
00004005
00004006
00004007
00004008
00004009
0000400a
0000400b
0000400c
0000400d
0000400e
0000400f
00004010
00004011
00004012
00004013
00004014
00004015
00004016
00004017
00004018
00004019
0000401a
0000401b
0000401c
0000401d
0000401e
0000401f
00004020
00004021
00004022
00004023
00004024
00004025
00004026
00004027
00004028
00004029
0000402a
0000402b
0000402c
0000402d
0000402e
0000402f
00004030
00004031
00004032
00004033
00004034
00004035
00004036
00004037
00004038
00004039
0000403a
0000403b
0000403c
0000403d
0000403e
0000403f
00004040
00004041
00004042
00004043
00004044
00004045
00004046
00004047
00004048
00004049
0000404a
0000404b
0000404c
0000404d
0000404e
0000404f
00004050
00004051
00004052
00004053
00004054
00004055
00004056
00004057
00004058
00004059
0000405a
0000405b
0000405c
0000405d
0000405e
0000405f
00004060
00004061
00004062
00004063
00004064
00004065
00004066
00004067
00004068
00004069
0000406a
0000406b
0000406c
0000406d
0000406e
0000406f
00004070
00004071
00004072
00004073
00004074
00004075
00004076
00004077
00004078
00004079
0000407a
0000407b
0000407c
0000407d
0000407e
0000407f
00004080
00004081
00004082
00004083
00004084
00004085
00004086
00004087
00004088
00004089
0000408a
0000408b
0000408c
0000408d
0000408e
0000408f
00004090
00004091
00004092
00004093
00004094
00004095
00004096
00004097
00004098
00004099
0000409a
0000409b
0000409c
0000409d
0000409e
0000409f
000040a0
000040a1
000040a2
000040a3
000040a4
000040a5
000040a6
000040a7
000040a8
000040a9
000040aa
000040ab
000040ac
000040ad
000040ae
000040af
000040b0
000040b1
000040b2
000040b3
000040b4
000040b5
000040b6
000040b7
000040b8
000040b9
000040ba
000040bb
000040bc
000040bd
000040be
000040bf
000040c0
000040c1
000040c2
000040c3
000040c4
000040c5
000040c6
000040c7
000040c8
000040c9
000040ca
000040cb
000040cc
000040cd
000040ce
000040cf
000040d0
000040d1
000040d2
000040d3
000040d4
000040d5
000040d6
000040d7
000040d8
000040d9
000040da
000040db
000040dc
000040dd
000040de
000040df
000040e0
000040e1
000040e2
000040e3
000040e4
000040e5
000040e6
000040e7
000040e8
000040e9
000040ea
000040eb
000040ec
000040ed
000040ee
000040ef
000040f0
000040f1
000040f2
000040f3
000040f4
000040f5
000040f6
000040f7
000040f8
000040f9
000040fa
000040fb
000040fc
000040fd
000040fe
000040ff
00005000
00005001
00005002
00005003
00005004
00005005
00005006
00005007
00005008
00005009
0000500a
0000500b
0000500c
0000500d
0000500e
0000500f
00005010
00005011
00005012
00005013
00005014
00005015
00005016
00005017
00005018
00005019
0000501a
0000501b
0000501c
0000501d
0000501e
0000501f
00005020
00005021
00005022
00005023
00005024
00005025
00005026
00005027
00005028
00005029
0000502a
0000502b
0000502c
0000502d
0000502e
0000502f
00005030
00005031
00005032
00005033
00005034
00005035
00005036
00005037
00005038
00005039
0000503a
0000503b
0000503c
0000503d
0000503e
0000503f
00005040
00005041
00005042
00005043
00005044
00005045
00005046
00005047
00005048
00005049
0000504a
0000504b
0000504c
0000504d
0000504e
0000504f
00005050
00005051
00005052
00005053
00005054
00005055
00005056
00005057
00005058
00005059
0000505a
0000505b
0000505c
0000505d
0000505e
0000505f
00005060
00005061
00005062
00005063
00005064
00005065
00005066
00005067
00005068
00005069
0000506a
0000506b
0000506c
0000506d
0000506e
0000506f
00005070
00005071
00005072
00005073
00005074
00005075
00005076
00005077
00005078
00005079
0000507a
0000507b
0000507c
0000507d
0000507e
0000507f
00005080
00005081
00005082
00005083
00005084
00005085
00005086
00005087
00005088
00005089
0000508a
0000508b
0000508c
0000508d
0000508e
0000508f
00005090
00005091
00005092
00005093
00005094
00005095
00005096
00005097
00005098
00005099
0000509a
0000509b
0000509c
0000509d
0000509e
0000509f
000050a0
000050a1
000050a2
000050a3
000050a4
000050a5
000050a6
000050a7
000050a8
000050a9
000050aa
000050ab
000050ac
000050ad
000050ae
000050af
000050b0
000050b1
000050b2
000050b3
000050b4
000050b5
000050b6
000050b7
000050b8
000050b9
000050ba
000050bb
000050bc
000050bd
000050be
000050bf
000050c0
000050c1
000050c2
000050c3
000050c4
000050c5
000050c6
000050c7
000050c8
000050c9
000050ca
000050cb
000050cc
000050cd
000050ce
000050cf
000050d0
000050d1
000050d2
000050d3
000050d4
000050d5
000050d6
000050d7
000050d8
000050d9
000050da
000050db
000050dc
000050dd
000050de
000050df
000050e0
000050e1
000050e2
000050e3
000050e4
000050e5
000050e6
000050e7
000050e8
000050e9
000050ea
000050eb
000050ec
000050ed
000050ee
000050ef
000050f0
000050f1
000050f2
000050f3
000050f4
000050f5
000050f6
000050f7
000050f8
000050f9
000050fa
000050fb
000050fc
000050fd
000050fe
000050ff
00006000
00006001
00006002
00006003
00006004
00006005
00006006
00006007
00006008
00006009
0000600a
0000600b
0000600c
0000600d
0000600e
0000600f
00006010
00006011
00006012
00006013
00006014
00006015
00006016
00006017
00006018
00006019
0000601a
0000601b
0000601c
0000601d
0000601e
0000601f
00006020
00006021
00006022
00006023
00006024
00006025
00006026
00006027
00006028
00006029
0000602a
0000602b
0000602c
0000602d
0000602e
0000602f
00006030
00006031
00006032
00006033
00006034
00006035
00006036
00006037
00006038
00006039
0000603a
0000603b
0000603c
0000603d
0000603e
0000603f
00006040
00006041
00006042
00006043
00006044
00006045
00006046
00006047
00006048
00006049
0000604a
0000604b
0000604c
0000604d
0000604e
0000604f
00006050
00006051
00006052
00006053
00006054
00006055
00006056
00006057
00006058
00006059
0000605a
0000605b
0000605c
0000605d
0000605e
0000605f
00006060
00006061
00006062
00006063
00006064
00006065
00006066
00006067
00006068
00006069
0000606a
0000606b
0000606c
0000606d
0000606e
0000606f
00006070
00006071
00006072
00006073
00006074
00006075
00006076
00006077
00006078
00006079
0000607a
0000607b
0000607c
0000607d
0000607e
0000607f
00006080
00006081
00006082
00006083
00006084
00006085
00006086
00006087
00006088
00006089
0000608a
0000608b
0000608c
0000608d
0000608e
0000608f
00006090
00006091
00006092
00006093
00006094
00006095
00006096
00006097
00006098
00006099
0000609a
0000609b
0000609c
0000609d
0000609e
0000609f
000060a0
000060a1
000060a2
000060a3
000060a4
000060a5
000060a6
000060a7
000060a8
000060a9
000060aa
000060ab
000060ac
000060ad
000060ae
000060af
000060b0
000060b1
000060b2
000060b3
000060b4
000060b5
000060b6
000060b7
000060b8
000060b9
000060ba
000060bb
000060bc
000060bd
000060be
000060bf
000060c0
000060c1
000060c2
000060c3
000060c4
000060c5
000060c6
000060c7
000060c8
000060c9
000060ca
000060cb
000060cc
000060cd
000060ce
000060cf
000060d0
000060d1
000060d2
000060d3
000060d4
000060d5
000060d6
000060d7
000060d8
000060d9
000060da
000060db
000060dc
000060dd
000060de
000060df
000060e0
000060e1
000060e2
000060e3
000060e4
000060e5
000060e6
000060e7
000060e8
000060e9
000060ea
000060eb
000060ec
000060ed
000060ee
000060ef
000060f0
000060f1
000060f2
000060f3
000060f4
000060f5
000060f6
000060f7
000060f8
000060f9
000060fa
000060fb
000060fc
000060fd
000060fe
000060ff
00007000
00007001
00007002
00007003
00007004
00007005
00007006
00007007
00007008
00007009
0000700a
0000700b
0000700c
0000700d
0000700e
0000700f
00007010
00007011
00007012
00007013
00007014
00007015
00007016
00007017
00007018
00007019
0000701a
0000701b
0000701c
0000701d
0000701e
0000701f
00007020
00007021
00007022
00007023
00007024
00007025
00007026
00007027
00007028
00007029
0000702a
0000702b
0000702c
0000702d
0000702e
0000702f
00007030
00007031
00007032
00007033
00007034
00007035
00007036
00007037
00007038
00007039
0000703a
0000703b
0000703c
0000703d
0000703e
0000703f
00007040
00007041
00007042
00007043
00007044
00007045
00007046
00007047
00007048
00007049
0000704a
0000704b
0000704c
0000704d
0000704e
0000704f
00007050
00007051
00007052
00007053
00007054
00007055
00007056
00007057
00007058
00007059
0000705a
0000705b
0000705c
0000705d
0000705e
0000705f
00007060
00007061
00007062
00007063
00007064
00007065
00007066
00007067
00007068
00007069
0000706a
0000706b
0000706c
0000706d
0000706e
0000706f
00007070
00007071
00007072
00007073
00007074
00007075
00007076
00007077
00007078
00007079
0000707a
0000707b
0000707c
0000707d
0000707e
0000707f
00007080
00007081
00007082
00007083
00007084
00007085
00007086
00007087
00007088
00007089
0000708a
0000708b
0000708c
0000708d
0000708e
0000708f
00007090
00007091
00007092
00007093
00007094
00007095
00007096
00007097
00007098
00007099
0000709a
0000709b
0000709c
0000709d
0000709e
0000709f
000070a0
000070a1
000070a2
000070a3
000070a4
000070a5
000070a6
000070a7
000070a8
000070a9
000070aa
000070ab
000070ac
000070ad
000070ae
000070af
000070b0
000070b1
000070b2
000070b3
000070b4
000070b5
000070b6
000070b7
000070b8
000070b9
000070ba
000070bb
000070bc
000070bd
000070be
000070bf
000070c0
000070c1
000070c2
000070c3
000070c4
000070c5
000070c6
000070c7
000070c8
000070c9
000070ca
000070cb
000070cc
000070cd
000070ce
000070cf
000070d0
000070d1
000070d2
000070d3
000070d4
000070d5
000070d6
000070d7
000070d8
000070d9
000070da
000070db
000070dc
000070dd
000070de
000070df
000070e0
000070e1
000070e2
000070e3
000070e4
000070e5
000070e6
000070e7
000070e8
000070e9
000070ea
000070eb
000070ec
000070ed
000070ee
000070ef
000070f0
000070f1
000070f2
000070f3
000070f4
000070f5
000070f6
000070f7
000070f8
000070f9
000070fa
000070fb
000070fc
000070fd
000070fe
000070ff
00008000
00008001
00008002
00008003
00008004
00008005
00008006
00008007
00008008
00008009
0000800a
0000800b
0000800c
0000800d
0000800e
0000800f
00008010
00008011
00008012
00008013
00008014
00008015
00008016
00008017
00008018
00008019
0000801a
0000801b
0000801c
0000801d
0000801e
0000801f
00008020
00008021
00008022
00008023
00008024
00008025
00008026
00008027
00008028
00008029
0000802a
0000802b
0000802c
0000802d
0000802e
0000802f
00008030
00008031
00008032
00008033
00008034
00008035
00008036
00008037
00008038
00008039
0000803a
0000803b
0000803c
0000803d
0000803e
0000803f
00008040
00008041
00008042
00008043
00008044
00008045
00008046
00008047
00008048
00008049
0000804a
0000804b
0000804c
0000804d
0000804e
0000804f
00008050
00008051
00008052
00008053
00008054
00008055
00008056
00008057
00008058
00008059
0000805a
0000805b
0000805c
0000805d
0000805e
0000805f
00008060
00008061
00008062
00008063
00008064
00008065
00008066
00008067
00008068
00008069
0000806a
0000806b
0000806c
0000806d
0000806e
0000806f
00008070
00008071
00008072
00008073
00008074
00008075
00008076
00008077
00008078
00008079
0000807a
0000807b
0000807c
0000807d
0000807e
0000807f
00008080
00008081
00008082
00008083
00008084
00008085
00008086
00008087
00008088
00008089
0000808a
0000808b
0000808c
0000808d
0000808e
0000808f
00008090
00008091
00008092
00008093
00008094
00008095
00008096
00008097
00008098
00008099
0000809a
0000809b
0000809c
0000809d
0000809e
0000809f
000080a0
000080a1
000080a2
000080a3
000080a4
000080a5
000080a6
000080a7
000080a8
000080a9
000080aa
000080ab
000080ac
000080ad
000080ae
000080af
000080b0
000080b1
000080b2
000080b3
000080b4
000080b5
000080b6
000080b7
000080b8
000080b9
000080ba
000080bb
000080bc
000080bd
000080be
000080bf
000080c0
000080c1
000080c2
000080c3
000080c4
000080c5
000080c6
000080c7
000080c8
000080c9
000080ca
000080cb
000080cc
000080cd
000080ce
000080cf
000080d0
000080d1
000080d2
000080d3
000080d4
000080d5
000080d6
000080d7
000080d8
000080d9
000080da
000080db
000080dc
000080dd
000080de
000080df
000080e0
000080e1
000080e2
000080e3
000080e4
000080e5
000080e6
000080e7
000080e8
000080e9
000080ea
000080eb
000080ec
000080ed
000080ee
000080ef
000080f0
000080f1
000080f2
000080f3
000080f4
000080f5
000080f6
000080f7
000080f8
000080f9
000080fa
000080fb
000080fc
000080fd
000080fe
000080ff
00009000
00009001
00009002
00009003
00009004
00009005
00009006
00009007
00009008
00009009
0000900a
0000900b
0000900c
0000900d
0000900e
0000900f
00009010
00009011
00009012
00009013
00009014
00009015
00009016
00009017
00009018
00009019
0000901a
0000901b
0000901c
0000901d
0000901e
0000901f
00009020
00009021
00009022
00009023
00009024
00009025
00009026
00009027
00009028
00009029
0000902a
0000902b
0000902c
0000902d
0000902e
0000902f
00009030
00009031
00009032
00009033
00009034
00009035
00009036
00009037
00009038
00009039
0000903a
0000903b
0000903c
0000903d
0000903e
0000903f
00009040
00009041
00009042
00009043
00009044
00009045
00009046
00009047
00009048
00009049
0000904a
0000904b
0000904c
0000904d
0000904e
0000904f
00009050
00009051
00009052
00009053
00009054
00009055
00009056
00009057
00009058
00009059
0000905a
0000905b
0000905c
0000905d
0000905e
0000905f
00009060
00009061
00009062
00009063
00009064
00009065
00009066
00009067
00009068
00009069
0000906a
0000906b
0000906c
0000906d
0000906e
0000906f
00009070
00009071
00009072
00009073
00009074
00009075
00009076
00009077
00009078
00009079
0000907a
0000907b
0000907c
0000907d
0000907e
0000907f
00009080
00009081
00009082
00009083
00009084
00009085
00009086
00009087
00009088
00009089
0000908a
0000908b
0000908c
0000908d
0000908e
0000908f
00009090
00009091
00009092
00009093
00009094
00009095
00009096
00009097
00009098
00009099
0000909a
0000909b
0000909c
0000909d
0000909e
0000909f
000090a0
000090a1
000090a2
000090a3
000090a4
000090a5
000090a6
000090a7
000090a8
000090a9
000090aa
000090ab
000090ac
000090ad
000090ae
000090af
000090b0
000090b1
000090b2
000090b3
000090b4
000090b5
000090b6
000090b7
000090b8
000090b9
000090ba
000090bb
000090bc
000090bd
000090be
000090bf
000090c0
000090c1
000090c2
000090c3
000090c4
000090c5
000090c6
000090c7
000090c8
000090c9
000090ca
000090cb
000090cc
000090cd
000090ce
000090cf
000090d0
000090d1
000090d2
000090d3
000090d4
000090d5
000090d6
000090d7
000090d8
000090d9
000090da
000090db
000090dc
000090dd
000090de
000090df
000090e0
000090e1
000090e2
000090e3
000090e4
000090e5
000090e6
000090e7
000090e8
000090e9
000090ea
000090eb
000090ec
000090ed
000090ee
000090ef
000090f0
000090f1
000090f2
000090f3
000090f4
000090f5
000090f6
000090f7
000090f8
000090f9
000090fa
000090fb
000090fc
000090fd
000090fe
000090ff
0000a000
0000a001
0000a002
0000a003
0000a004
0000a005
0000a006
0000a007
0000a008
0000a009
0000a00a
0000a00b
0000a00c
0000a00d
0000a00e
0000a00f
0000a010
0000a011
0000a012
0000a013
0000a014
0000a015
0000a016
0000a017
0000a018
0000a019
0000a01a
0000a01b
0000a01c
0000a01d
0000a01e
0000a01f
0000a020
0000a021
0000a022
0000a023
0000a024
0000a025
0000a026
0000a027
0000a028
0000a029
0000a02a
0000a02b
0000a02c
0000a02d
0000a02e
0000a02f
0000a030
0000a031
0000a032
0000a033
0000a034
0000a035
0000a036
0000a037
0000a038
0000a039
0000a03a
0000a03b
0000a03c
0000a03d
0000a03e
0000a03f
0000a040
0000a041
0000a042
0000a043
0000a044
0000a045
0000a046
0000a047
0000a048
0000a049
0000a04a
0000a04b
0000a04c
0000a04d
0000a04e
0000a04f
0000a050
0000a051
0000a052
0000a053
0000a054
0000a055
0000a056
0000a057
0000a058
0000a059
0000a05a
0000a05b
0000a05c
0000a05d
0000a05e
0000a05f
0000a060
0000a061
0000a062
0000a063
0000a064
0000a065
0000a066
0000a067
0000a068
0000a069
0000a06a
0000a06b
0000a06c
0000a06d
0000a06e
0000a06f
0000a070
0000a071
0000a072
0000a073
0000a074
0000a075
0000a076
0000a077
0000a078
0000a079
0000a07a
0000a07b
0000a07c
0000a07d
0000a07e
0000a07f
0000a080
0000a081
0000a082
0000a083
0000a084
0000a085
0000a086
0000a087
0000a088
0000a089
0000a08a
0000a08b
0000a08c
0000a08d
0000a08e
0000a08f
0000a090
0000a091
0000a092
0000a093
0000a094
0000a095
0000a096
0000a097
0000a098
0000a099
0000a09a
0000a09b
0000a09c
0000a09d
0000a09e
0000a09f
0000a0a0
0000a0a1
0000a0a2
0000a0a3
0000a0a4
0000a0a5
0000a0a6
0000a0a7
0000a0a8
0000a0a9
0000a0aa
0000a0ab
0000a0ac
0000a0ad
0000a0ae
0000a0af
0000a0b0
0000a0b1
0000a0b2
0000a0b3
0000a0b4
0000a0b5
0000a0b6
0000a0b7
0000a0b8
0000a0b9
0000a0ba
0000a0bb
0000a0bc
0000a0bd
0000a0be
0000a0bf
0000a0c0
0000a0c1
0000a0c2
0000a0c3
0000a0c4
0000a0c5
0000a0c6
0000a0c7
0000a0c8
0000a0c9
0000a0ca
0000a0cb
0000a0cc
0000a0cd
0000a0ce
0000a0cf
0000a0d0
0000a0d1
0000a0d2
0000a0d3
0000a0d4
0000a0d5
0000a0d6
0000a0d7
0000a0d8
0000a0d9
0000a0da
0000a0db
0000a0dc
0000a0dd
0000a0de
0000a0df
0000a0e0
0000a0e1
0000a0e2
0000a0e3
0000a0e4
0000a0e5
0000a0e6
0000a0e7
0000a0e8
0000a0e9
0000a0ea
0000a0eb
0000a0ec
0000a0ed
0000a0ee
0000a0ef
0000a0f0
0000a0f1
0000a0f2
0000a0f3
0000a0f4
0000a0f5
0000a0f6
0000a0f7
0000a0f8
0000a0f9
0000a0fa
0000a0fb
0000a0fc
0000a0fd
0000a0fe
0000a0ff
0000b000
0000b001
0000b002
0000b003
0000b004
0000b005
0000b006
0000b007
0000b008
0000b009
0000b00a
0000b00b
0000b00c
0000b00d
0000b00e
0000b00f
0000b010
0000b011
0000b012
0000b013
0000b014
0000b015
0000b016
0000b017
0000b018
0000b019
0000b01a
0000b01b
0000b01c
0000b01d
0000b01e
0000b01f
0000b020
0000b021
0000b022
0000b023
0000b024
0000b025
0000b026
0000b027
0000b028
0000b029
0000b02a
0000b02b
0000b02c
0000b02d
0000b02e
0000b02f
0000b030
0000b031
0000b032
0000b033
0000b034
0000b035
0000b036
0000b037
0000b038
0000b039
0000b03a
0000b03b
0000b03c
0000b03d
0000b03e
0000b03f
0000b040
0000b041
0000b042
0000b043
0000b044
0000b045
0000b046
0000b047
0000b048
0000b049
0000b04a
0000b04b
0000b04c
0000b04d
0000b04e
0000b04f
0000b050
0000b051
0000b052
0000b053
0000b054
0000b055
0000b056
0000b057
0000b058
0000b059
0000b05a
0000b05b
0000b05c
0000b05d
0000b05e
0000b05f
0000b060
0000b061
0000b062
0000b063
0000b064
0000b065
0000b066
0000b067
0000b068
0000b069
0000b06a
0000b06b
0000b06c
0000b06d
0000b06e
0000b06f
0000b070
0000b071
0000b072
0000b073
0000b074
0000b075
0000b076
0000b077
0000b078
0000b079
0000b07a
0000b07b
0000b07c
0000b07d
0000b07e
0000b07f
0000b080
0000b081
0000b082
0000b083
0000b084
0000b085
0000b086
0000b087
0000b088
0000b089
0000b08a
0000b08b
0000b08c
0000b08d
0000b08e
0000b08f
0000b090
0000b091
0000b092
0000b093
0000b094
0000b095
0000b096
0000b097
0000b098
0000b099
0000b09a
0000b09b
0000b09c
0000b09d
0000b09e
0000b09f
0000b0a0
0000b0a1
0000b0a2
0000b0a3
0000b0a4
0000b0a5
0000b0a6
0000b0a7
0000b0a8
0000b0a9
0000b0aa
0000b0ab
0000b0ac
0000b0ad
0000b0ae
0000b0af
0000b0b0
0000b0b1
0000b0b2
0000b0b3
0000b0b4
0000b0b5
0000b0b6
0000b0b7
0000b0b8
0000b0b9
0000b0ba
0000b0bb
0000b0bc
0000b0bd
0000b0be
0000b0bf
0000b0c0
0000b0c1
0000b0c2
0000b0c3
0000b0c4
0000b0c5
0000b0c6
0000b0c7
0000b0c8
0000b0c9
0000b0ca
0000b0cb
0000b0cc
0000b0cd
0000b0ce
0000b0cf
0000b0d0
0000b0d1
0000b0d2
0000b0d3
0000b0d4
0000b0d5
0000b0d6
0000b0d7
0000b0d8
0000b0d9
0000b0da
0000b0db
0000b0dc
0000b0dd
0000b0de
0000b0df
0000b0e0
0000b0e1
0000b0e2
0000b0e3
0000b0e4
0000b0e5
0000b0e6
0000b0e7
0000b0e8
0000b0e9
0000b0ea
0000b0eb
0000b0ec
0000b0ed
0000b0ee
0000b0ef
0000b0f0
0000b0f1
0000b0f2
0000b0f3
0000b0f4
0000b0f5
0000b0f6
0000b0f7
0000b0f8
0000b0f9
0000b0fa
0000b0fb
0000b0fc
0000b0fd
0000b0fe
0000b0ff
0000c000
0000c001
0000c002
0000c003
0000c004
0000c005
0000c006
0000c007
0000c008
0000c009
0000c00a
0000c00b
0000c00c
0000c00d
0000c00e
0000c00f
0000c010
0000c011
0000c012
0000c013
0000c014
0000c015
0000c016
0000c017
0000c018
0000c019
0000c01a
0000c01b
0000c01c
0000c01d
0000c01e
0000c01f
0000c020
0000c021
0000c022
0000c023
0000c024
0000c025
0000c026
0000c027
0000c028
0000c029
0000c02a
0000c02b
0000c02c
0000c02d
0000c02e
0000c02f
0000c030
0000c031
0000c032
0000c033
0000c034
0000c035
0000c036
0000c037
0000c038
0000c039
0000c03a
0000c03b
0000c03c
0000c03d
0000c03e
0000c03f
0000c040
0000c041
0000c042
0000c043
0000c044
0000c045
0000c046
0000c047
0000c048
0000c049
0000c04a
0000c04b
0000c04c
0000c04d
0000c04e
0000c04f
0000c050
0000c051
0000c052
0000c053
0000c054
0000c055
0000c056
0000c057
0000c058
0000c059
0000c05a
0000c05b
0000c05c
0000c05d
0000c05e
0000c05f
0000c060
0000c061
0000c062
0000c063
0000c064
0000c065
0000c066
0000c067
0000c068
0000c069
0000c06a
0000c06b
0000c06c
0000c06d
0000c06e
0000c06f
0000c070
0000c071
0000c072
0000c073
0000c074
0000c075
0000c076
0000c077
0000c078
0000c079
0000c07a
0000c07b
0000c07c
0000c07d
0000c07e
0000c07f
0000c080
0000c081
0000c082
0000c083
0000c084
0000c085
0000c086
0000c087
0000c088
0000c089
0000c08a
0000c08b
0000c08c
0000c08d
0000c08e
0000c08f
0000c090
0000c091
0000c092
0000c093
0000c094
0000c095
0000c096
0000c097
0000c098
0000c099
0000c09a
0000c09b
0000c09c
0000c09d
0000c09e
0000c09f
0000c0a0
0000c0a1
0000c0a2
0000c0a3
0000c0a4
0000c0a5
0000c0a6
0000c0a7
0000c0a8
0000c0a9
0000c0aa
0000c0ab
0000c0ac
0000c0ad
0000c0ae
0000c0af
0000c0b0
0000c0b1
0000c0b2
0000c0b3
0000c0b4
0000c0b5
0000c0b6
0000c0b7
0000c0b8
0000c0b9
0000c0ba
0000c0bb
0000c0bc
0000c0bd
0000c0be
0000c0bf
0000c0c0
0000c0c1
0000c0c2
0000c0c3
0000c0c4
0000c0c5
0000c0c6
0000c0c7
0000c0c8
0000c0c9
0000c0ca
0000c0cb
0000c0cc
0000c0cd
0000c0ce
0000c0cf
0000c0d0
0000c0d1
0000c0d2
0000c0d3
0000c0d4
0000c0d5
0000c0d6
0000c0d7
0000c0d8
0000c0d9
0000c0da
0000c0db
0000c0dc
0000c0dd
0000c0de
0000c0df
0000c0e0
0000c0e1
0000c0e2
0000c0e3
0000c0e4
0000c0e5
0000c0e6
0000c0e7
0000c0e8
0000c0e9
0000c0ea
0000c0eb
0000c0ec
0000c0ed
0000c0ee
0000c0ef
0000c0f0
0000c0f1
0000c0f2
0000c0f3
0000c0f4
0000c0f5
0000c0f6
0000c0f7
0000c0f8
0000c0f9
0000c0fa
0000c0fb
0000c0fc
0000c0fd
0000c0fe
0000c0ff
0000d000
0000d001
0000d002
0000d003
0000d004
0000d005
0000d006
0000d007
0000d008
0000d009
0000d00a
0000d00b
0000d00c
0000d00d
0000d00e
0000d00f
0000d010
0000d011
0000d012
0000d013
0000d014
0000d015
0000d016
0000d017
0000d018
0000d019
0000d01a
0000d01b
0000d01c
0000d01d
0000d01e
0000d01f
0000d020
0000d021
0000d022
0000d023
0000d024
0000d025
0000d026
0000d027
0000d028
0000d029
0000d02a
0000d02b
0000d02c
0000d02d
0000d02e
0000d02f
0000d030
0000d031
0000d032
0000d033
0000d034
0000d035
0000d036
0000d037
0000d038
0000d039
0000d03a
0000d03b
0000d03c
0000d03d
0000d03e
0000d03f
0000d040
0000d041
0000d042
0000d043
0000d044
0000d045
0000d046
0000d047
0000d048
0000d049
0000d04a
0000d04b
0000d04c
0000d04d
0000d04e
0000d04f
0000d050
0000d051
0000d052
0000d053
0000d054
0000d055
0000d056
0000d057
0000d058
0000d059
0000d05a
0000d05b
0000d05c
0000d05d
0000d05e
0000d05f
0000d060
0000d061
0000d062
0000d063
0000d064
0000d065
0000d066
0000d067
0000d068
0000d069
0000d06a
0000d06b
0000d06c
0000d06d
0000d06e
0000d06f
0000d070
0000d071
0000d072
0000d073
0000d074
0000d075
0000d076
0000d077
0000d078
0000d079
0000d07a
0000d07b
0000d07c
0000d07d
0000d07e
0000d07f
0000d080
0000d081
0000d082
0000d083
0000d084
0000d085
0000d086
0000d087
0000d088
0000d089
0000d08a
0000d08b
0000d08c
0000d08d
0000d08e
0000d08f
0000d090
0000d091
0000d092
0000d093
0000d094
0000d095
0000d096
0000d097
0000d098
0000d099
0000d09a
0000d09b
0000d09c
0000d09d
0000d09e
0000d09f
0000d0a0
0000d0a1
0000d0a2
0000d0a3
0000d0a4
0000d0a5
0000d0a6
0000d0a7
0000d0a8
0000d0a9
0000d0aa
0000d0ab
0000d0ac
0000d0ad
0000d0ae
0000d0af
0000d0b0
0000d0b1
0000d0b2
0000d0b3
0000d0b4
0000d0b5
0000d0b6
0000d0b7
0000d0b8
0000d0b9
0000d0ba
0000d0bb
0000d0bc
0000d0bd
0000d0be
0000d0bf
0000d0c0
0000d0c1
0000d0c2
0000d0c3
0000d0c4
0000d0c5
0000d0c6
0000d0c7
0000d0c8
0000d0c9
0000d0ca
0000d0cb
0000d0cc
0000d0cd
0000d0ce
0000d0cf
0000d0d0
0000d0d1
0000d0d2
0000d0d3
0000d0d4
0000d0d5
0000d0d6
0000d0d7
0000d0d8
0000d0d9
0000d0da
0000d0db
0000d0dc
0000d0dd
0000d0de
0000d0df
0000d0e0
0000d0e1
0000d0e2
0000d0e3
0000d0e4
0000d0e5
0000d0e6
0000d0e7
0000d0e8
0000d0e9
0000d0ea
0000d0eb
0000d0ec
0000d0ed
0000d0ee
0000d0ef
0000d0f0
0000d0f1
0000d0f2
0000d0f3
0000d0f4
0000d0f5
0000d0f6
0000d0f7
0000d0f8
0000d0f9
0000d0fa
0000d0fb
0000d0fc
0000d0fd
0000d0fe
0000d0ff
0000e000
0000e001
0000e002
0000e003
0000e004
0000e005
0000e006
0000e007
0000e008
0000e009
0000e00a
0000e00b
0000e00c
0000e00d
0000e00e
0000e00f
0000e010
0000e011
0000e012
0000e013
0000e014
0000e015
0000e016
0000e017
0000e018
0000e019
0000e01a
0000e01b
0000e01c
0000e01d
0000e01e
0000e01f
0000e020
0000e021
0000e022
0000e023
0000e024
0000e025
0000e026
0000e027
0000e028
0000e029
0000e02a
0000e02b
0000e02c
0000e02d
0000e02e
0000e02f
0000e030
0000e031
0000e032
0000e033
0000e034
0000e035
0000e036
0000e037
0000e038
0000e039
0000e03a
0000e03b
0000e03c
0000e03d
0000e03e
0000e03f
0000e040
0000e041
0000e042
0000e043
0000e044
0000e045
0000e046
0000e047
0000e048
0000e049
0000e04a
0000e04b
0000e04c
0000e04d
0000e04e
0000e04f
0000e050
0000e051
0000e052
0000e053
0000e054
0000e055
0000e056
0000e057
0000e058
0000e059
0000e05a
0000e05b
0000e05c
0000e05d
0000e05e
0000e05f
0000e060
0000e061
0000e062
0000e063
0000e064
0000e065
0000e066
0000e067
0000e068
0000e069
0000e06a
0000e06b
0000e06c
0000e06d
0000e06e
0000e06f
0000e070
0000e071
0000e072
0000e073
0000e074
0000e075
0000e076
0000e077
0000e078
0000e079
0000e07a
0000e07b
0000e07c
0000e07d
0000e07e
0000e07f
0000e080
0000e081
0000e082
0000e083
0000e084
0000e085
0000e086
0000e087
0000e088
0000e089
0000e08a
0000e08b
0000e08c
0000e08d
0000e08e
0000e08f
0000e090
0000e091
0000e092
0000e093
0000e094
0000e095
0000e096
0000e097
0000e098
0000e099
0000e09a
0000e09b
0000e09c
0000e09d
0000e09e
0000e09f
0000e0a0
0000e0a1
0000e0a2
0000e0a3
0000e0a4
0000e0a5
0000e0a6
0000e0a7
0000e0a8
0000e0a9
0000e0aa
0000e0ab
0000e0ac
0000e0ad
0000e0ae
0000e0af
0000e0b0
0000e0b1
0000e0b2
0000e0b3
0000e0b4
0000e0b5
0000e0b6
0000e0b7
0000e0b8
0000e0b9
0000e0ba
0000e0bb
0000e0bc
0000e0bd
0000e0be
0000e0bf
0000e0c0
0000e0c1
0000e0c2
0000e0c3
0000e0c4
0000e0c5
0000e0c6
0000e0c7
0000e0c8
0000e0c9
0000e0ca
0000e0cb
0000e0cc
0000e0cd
0000e0ce
0000e0cf
0000e0d0
0000e0d1
0000e0d2
0000e0d3
0000e0d4
0000e0d5
0000e0d6
0000e0d7
0000e0d8
0000e0d9
0000e0da
0000e0db
0000e0dc
0000e0dd
0000e0de
0000e0df
0000e0e0
0000e0e1
0000e0e2
0000e0e3
0000e0e4
0000e0e5
0000e0e6
0000e0e7
0000e0e8
0000e0e9
0000e0ea
0000e0eb
0000e0ec
0000e0ed
0000e0ee
0000e0ef
0000e0f0
0000e0f1
0000e0f2
0000e0f3
0000e0f4
0000e0f5
0000e0f6
0000e0f7
0000e0f8
0000e0f9
0000e0fa
0000e0fb
0000e0fc
0000e0fd
0000e0fe
0000e0ff
0000f000
0000f001
0000f002
0000f003
0000f004
0000f005
0000f006
0000f007
0000f008
0000f009
0000f00a
0000f00b
0000f00c
0000f00d
0000f00e
0000f00f
0000f010
0000f011
0000f012
0000f013
0000f014
0000f015
0000f016
0000f017
0000f018
0000f019
0000f01a
0000f01b
0000f01c
0000f01d
0000f01e
0000f01f
0000f020
0000f021
0000f022
0000f023
0000f024
0000f025
0000f026
0000f027
0000f028
0000f029
0000f02a
0000f02b
0000f02c
0000f02d
0000f02e
0000f02f
0000f030
0000f031
0000f032
0000f033
0000f034
0000f035
0000f036
0000f037
0000f038
0000f039
0000f03a
0000f03b
0000f03c
0000f03d
0000f03e
0000f03f
0000f040
0000f041
0000f042
0000f043
0000f044
0000f045
0000f046
0000f047
0000f048
0000f049
0000f04a
0000f04b
0000f04c
0000f04d
0000f04e
0000f04f
0000f050
0000f051
0000f052
0000f053
0000f054
0000f055
0000f056
0000f057
0000f058
0000f059
0000f05a
0000f05b
0000f05c
0000f05d
0000f05e
0000f05f
0000f060
0000f061
0000f062
0000f063
0000f064
0000f065
0000f066
0000f067
0000f068
0000f069
0000f06a
0000f06b
0000f06c
0000f06d
0000f06e
0000f06f
0000f070
0000f071
0000f072
0000f073
0000f074
0000f075
0000f076
0000f077
0000f078
0000f079
0000f07a
0000f07b
0000f07c
0000f07d
0000f07e
0000f07f
0000f080
0000f081
0000f082
0000f083
0000f084
0000f085
0000f086
0000f087
0000f088
0000f089
0000f08a
0000f08b
0000f08c
0000f08d
0000f08e
0000f08f
0000f090
0000f091
0000f092
0000f093
0000f094
0000f095
0000f096
0000f097
0000f098
0000f099
0000f09a
0000f09b
0000f09c
0000f09d
0000f09e
0000f09f
0000f0a0
0000f0a1
0000f0a2
0000f0a3
0000f0a4
0000f0a5
0000f0a6
0000f0a7
0000f0a8
0000f0a9
0000f0aa
0000f0ab
0000f0ac
0000f0ad
0000f0ae
0000f0af
0000f0b0
0000f0b1
0000f0b2
0000f0b3
0000f0b4
0000f0b5
0000f0b6
0000f0b7
0000f0b8
0000f0b9
0000f0ba
0000f0bb
0000f0bc
0000f0bd
0000f0be
0000f0bf
0000f0c0
0000f0c1
0000f0c2
0000f0c3
0000f0c4
0000f0c5
0000f0c6
0000f0c7
0000f0c8
0000f0c9
0000f0ca
0000f0cb
0000f0cc
0000f0cd
0000f0ce
0000f0cf
0000f0d0
0000f0d1
0000f0d2
0000f0d3
0000f0d4
0000f0d5
0000f0d6
0000f0d7
0000f0d8
0000f0d9
0000f0da
0000f0db
0000f0dc
0000f0dd
0000f0de
0000f0df
0000f0e0
0000f0e1
0000f0e2
0000f0e3
0000f0e4
0000f0e5
0000f0e6
0000f0e7
0000f0e8
0000f0e9
0000f0ea
0000f0eb
0000f0ec
0000f0ed
0000f0ee
0000f0ef
0000f0f0
0000f0f1
0000f0f2
0000f0f3
0000f0f4
0000f0f5
0000f0f6
0000f0f7
0000f0f8
0000f0f9
0000f0fa
0000f0fb
0000f0fc
0000f0fd
0000f0fe
0000f0ff
01000000
01000001
01000002
01000003
01000004
01000005
01000006
01000007
01000008
01000009
0100000a
0100000b
0100000c
0100000d
0100000e
0100000f
01001000
01001001
01001002
01001003
01001004
01001005
01001006
01001007
01001008
01001009
0100100a
0100100b
0100100c
0100100d
0100100e
0100100f
01002000
01002001
01002002
01002003
01002004
01002005
01002006
01002007
01002008
01002009
0100200a
0100200b
0100200c
0100200d
0100200e
0100200f
01003000
01003001
01003002
01003003
01003004
01003005
01003006
01003007
01003008
01003009
0100300a
0100300b
0100300c
0100300d
0100300e
0100300f
01004000
01004001
01004002
01004003
01004004
01004005
01004006
01004007
01004008
01004009
0100400a
0100400b
0100400c
0100400d
0100400e
0100400f
01005000
01005001
01005002
01005003
01005004
01005005
01005006
01005007
01005008
01005009
0100500a
0100500b
0100500c
0100500d
0100500e
0100500f
01006000
01006001
01006002
01006003
01006004
01006005
01006006
01006007
01006008
01006009
0100600a
0100600b
0100600c
0100600d
0100600e
0100600f
01007000
01007001
01007002
01007003
01007004
01007005
01007006
01007007
01007008
01007009
0100700a
0100700b
0100700c
0100700d
0100700e
0100700f
01008000
01008001
01008002
01008003
01008004
01008005
01008006
01008007
01008008
01008009
0100800a
0100800b
0100800c
0100800d
0100800e
0100800f
01009000
01009001
01009002
01009003
01009004
01009005
01009006
01009007
01009008
01009009
0100900a
0100900b
0100900c
0100900d
0100900e
0100900f
