0000001e
00000007
0000001a
00000004
00000007
0000001f
00000001
00000019
0000001c
00000018
00000006
0000001d
00000005
00000007
00000003
0000001f
00000007
00000019
00000003
00000017
00000019
00000019
00000006
00000006
0000001e
00000017
0000001f
00000018
00000017
00000008
0000001f
00000006
0000001a
00000001
0000001f
00000017
00000006
0000001c
00000005
00000001
00000001
0000001e
00000009
00000007
0000001f
00000019
00000018
00000009
0000001d
0000001b
00000019
00000005
0000001c
0000001a
00000005
0000001f
00000001
0000001f
00000019
00000001
00000018
00000002
00000004
00000005
00000004
0000001d
00000004
00000004
0000001f
0000001f
00000019
00000001
00000001
00000006
00000009
00000017
00000019
0000001f
0000001f
00000006
0000001e
0000001b
00000001
0000001f
0000001b
00000004
00000006
0000001c
00000009
00000018
0000001d
00000005
00000009
00000019
0000001b
0000001b
00000002
0000001d
00000008
0000001d
0000001f
00000003
00000008
00000019
0000001f
00000019
00000002
0000001d
00000005
0000001c
00000006
00000008
00000017
00000018
0000001a
00000008
0000001f
00000007
00000005
00000018
00000007
00000006
00000001
00000018
0000001b
0000001b
00000009
0000001a
0000001f
00000001
00000003
00000001
00000005
0000001b
00000002
00000002
00000008
00000001
0000001d
00000004
00000007
00000006
0000001a
0000001c
00000004
0000001a
0000001c
00000009
0000001b
00000005
0000001c
0000001f
00000006
00000018
0000001a
00000003
00000018
00000009
00000008
00000018
0000001b
00000003
00000006
0000001f
00000003
0000001a
00000007
00000006
00000006
0000001b
00000001
0000001a
0000001a
0000001a
00000003
0000001d
0000001b
0000001e
00000006
0000001f
0000001c
00000006
00000018
0000001d
0000001d
0000001b
00000007
00000017
0000001b
00000002
00000003
0000001d
0000001e
0000001c
00000003
00000003
00000017
00000017
00000019
00000009
00000009
00000003
0000001b
00000018
00000018
0000001b
00000005
00000004
00000018
00000019
00000018
00000004
0000001f
00000001
00000001
00000007
00000018
00000001
00000007
00000001
0000001f
00000007
0000001d
0000001d
00000019
00000019
00000004
0000001f
0000001f
0000001b
0000001a
0000001c
00000008
00000018
00000002
00000002
0000001d
0000001f
0000001a
0000001f
00000005
0000001e
0000001d
0000001f
0000001a
00000007
00000019
0000001c
00000002
0000001c
0000001d
00000004
00000008
0000001f
00000008
00000003
0000001f
00000017
00000003
00000008
00000017
00000009
00000007
00000019
0000001c
00000005
0000001f
00000019
0000001a
00000003
0000001d
0000001b
00000005
0000001d
00000009
00000004
00000007
00000004
0000001a
00000002
0000001e
00000018
00000017
00000007
00000007
00000001
00000007
00000008
00000009
0000001f
00000001
00000008
0000001e
00000007
0000001c
0000001d
00000009
00000019
0000001c
0000001b
0000001d
00000018
00000018
00000002
00000018
0000001e
00000003
00000005
0000001c
00000005
00000001
0000001b
00000008
0000001b
00000001
0000001f
00000005
00000005
00000001
00000018
00000019
00000002
00000009
00000008
0000001d
00000003
0000001d
0000001f
0000001e
00000009
00000002
00000001
0000001d
00000001
00000008
00000001
00000002
00000002
0000001e
00000001
00000001
00000005
00000004
00000002
00000003
00000001
0000001f
0000001e
00000001
0000001f
0000001b
00000001
00000004
00000017
00000005
00000002
00000008
00000007
00000017
00000009
00000002
0000001f
00000008
00000002
00000006
00000008
0000001f
00000001
00000007
00000009
00000009
00000019
0000001c
00000003
0000001f
00000019
0000001c
00000001
00000002
00000019
00000018
00000006
00000001
00000006
0000001a
0000001b
0000001f
00000009
00000018
0000001e
00000018
00000003
00000003
00000019
00000001
00000007
00000002
00000005
0000001d
0000001c
0000001f
00000018
0000001d
0000001c
00000018
00000008
00000005
0000001d
00000006
0000001f
00000001
00000008
00000019
0000001e
00000004
00000001
0000001b
0000001f
00000019
00000017
0000001a
00000007
00000001
00000001
00000018
00000009
00000006
00000008
00000006
0000001a
00000005
00000001
0000001e
00000009
0000001c
0000001c
0000001f
00000006
00000018
0000001f
00000002
00000007
0000001c
00000007
00000007
00000019
00000009
00000019
00000003
00000002
0000001f
00000001
0000001c
00000009
00000018
0000001f
0000001f
0000001b
00000006
00000004
0000001f
0000001f
00000001
0000001c
0000001a
00000017
0000001f
0000001e
00000001
00000007
00000003
0000001f
00000004
00000006
00000008
00000001
00000002
00000001
00000005
0000001c
0000001c
00000019
00000001
00000005
00000003
0000001a
00000008
00000019
0000001b
00000004
00000001
00000019
0000001f
00000002
0000001f
0000001e
0000001b
00000009
00000009
00000006
00000003
00000004
00000004
00000001
0000001f
00000001
0000001f
0000001d
00000001
00000001
00000017
0000001f
00000017
0000001a
00000006
00000001
00000008
00000006
00000003
00000004
00000019
00000008
0000001d
00000009
00000006
00000017
00000017
0000001e
0000001d
00000017
00000004
00000001
0000001c
0000001f
00000003
0000001f
00000009
0000001f
00000019
00000001
0000001f
00000007
00000003
00000003
00000009
00000006
0000001f
0000001b
00000009
0000001a
0000001a
00000002
0000001f
00000001
00000006
00000017
00000005
0000001a
0000001e
00000001
00000009
0000001c
0000001f
00000005
00000007
00000006
00000008
00000019
0000001d
00000007
00000019
00000009
00000009
00000001
00000006
00000006
00000003
00000007
00000009
0000001f
00000004
00000006
0000001e
00000002
00000017
00000009
0000001e
0000001a
00000004
00000005
00000005
0000001d
0000001f
00000006
00000006
00000017
0000001f
00000004
0000001b
00000002
0000001d
0000001b
00000003
00000002
0000001f
00000003
0000001a
00000019
00000001
00000001
00000003
00000007
00000008
0000001c
00000017
00000006
0000001a
0000001a
0000001d
0000001a
00000003
00000019
0000001c
0000001a
00000004
0000001e
00000002
00000007
00000008
0000001b
00000006
0000001c
00000017
0000001a
00000018
00000009
0000001c
00000019
0000001f
00000007
0000001d
00000002
0000001a
00000008
0000001d
00000003
00000007
00000004
00000003
0000001a
00000006
00000005
00000008
00000017
00000006
0000001f
00000004
00000017
00000006
0000001f
00000005
0000001f
0000001c
0000001a
00000005
00000019
00000006
00000018
00000018
0000001f
00000006
00000002
00000004
00000004
00000019
00000006
0000001b
0000001f
00000009
00000005
0000001f
0000001e
00000005
00000007
00000018
0000001c
0000001b
0000001c
00000007
0000001f
0000001e
0000001a
00000004
00000009
0000001f
0000001f
0000001d
00000002
0000001d
0000001f
00000006
00000002
0000001f
0000001c
00000005
0000001d
00000003
00000006
0000001c
00000007
00000006
00000019
00000018
00000004
00000004
0000001f
00000008
00000001
00000008
00000005
00000004
00000005
00000009
00000017
0000001f
0000001f
0000001c
00000007
0000001d
0000001f
0000001e
0000001a
0000001e
00000017
00000004
0000001c
0000001d
00000017
00000005
00000017
00000009
0000001b
0000001f
00000019
0000001e
00000001
00000004
00000007
00000001
00000001
0000001f
00000008
00000001
00000001
00000005
00000002
00000004
0000001e
0000001f
0000001b
0000001f
0000001d
0000001c
0000001a
00000001
0000001c
00000008
0000001a
0000001f
00000018
00000001
00000018
00000018
0000001e
00000001
0000001e
00000017
00000001
00000001
00000018
0000001c
0000001c
00000019
00000003
0000001d
0000001c
0000001f
00000007
0000001f
0000001d
0000001c
0000001b
00000004
0000001b
0000001c
00000017
00000018
00000008
0000001c
00000008
00000003
0000001f
00000009
0000001f
00000017
0000001a
00000001
00000006
00000006
00000004
00000008
0000001d
00000001
00000018
0000001c
00000006
00000008
00000008
00000002
00000017
00000009
00000019
00000019
00000002
00000007
00000008
00000004
00000004
00000001
00000005
0000001e
00000019
0000001c
0000001a
00000006
00000001
00000003
0000001b
0000001d
00000001
00000018
00000003
00000007
00000001
00000008
00000008
0000001d
00000003
00000005
0000001f
0000001b
00000006
00000001
00000001
00000001
00000018
00000017
00000001
00000002
0000001f
0000001f
00000002
00000002
0000001a
00000003
0000001d
00000002
00000001
00000005
00000006
0000001e
00000009
00000009
00000018
0000001e
00000001
0000001e
00000017
00000017
00000001
00000005
00000009
0000001f
00000005
00000001
00000007
0000001a
00000008
00000002
0000001a
00000007
00000001
0000001c
0000001f
0000001f
00000008
0000001f
00000018
00000005
0000001e
00000007
0000001e
0000001b
00000017
00000001
0000001e
00000004
00000004
0000001a
00000002
00000008
00000002
0000001d
00000006
00000019
0000001b
00000001
00000018
00000017
00000003
00000003
00000001
00000001
00000002
00000007
00000002
00000005
00000005
00000018
00000017
00000017
00000001
0000001f
00000018
00000009
0000001f
00000009
00000006
00000004
0000001e
0000001b
00000002
00000018
00000018
00000006
0000001b
00000007
00000001
00000007
0000001c
00000017
0000001e
00000007
00000008
00000004
0000001d
0000001b
00000006
00000018
0000001e
0000001f
00000001
0000001d
0000001c
0000001a
00000006
0000001d
0000001d
00000018
0000001c
00000001
00000018
0000001e
0000001f
00000001
00000017
00000001
0000001f
0000001d
00000007
0000001f
00000002
00000018
0000001f
0000001f
00000019
00000004
00000008
0000001e
0000001c
00000001
00000002
0000001f
00000008
00000019
00000002
0000001b
00000005
0000001f
00000009
0000001b
00000007
0000001e
00000006
00000006
00000006
00000003
00000004
0000001e
0000001e
00000009
00000001
0000001c
00000009
00000001
00000007
00000001
0000001f
0000001e
00000017
0000001e
00000017
00000019
00000008
00000017
00000019
00000007
00000017
00000009
00000001
0000001f
00000008
0000001b
0000001f
0000001d
00000004
0000001d
00000001
00000005
00000009
00000019
00000017
00000007
00000001
00000005
00000008
0000001f
00000009
00000003
0000001c
0000001b
0000001a
00000001
00000018
0000001c
00000001
00000004
00000003
0000001b
0000001e
00000006
00000001
00000018
0000001b
00000006
00000005
0000001e
0000001e
0000001c
00000004
00000008
00000019
00000007
0000001e
0000001b
00000008
00000018
00000001
00000006
00000019
0000001e
00000018
00000002
0000001c
00000017
00000019
00000005
00000002
0000001f
00000007
00000004
00000006
0000001e
00000019
0000001e
00000002
0000001b
0000001e
0000001b
00000007
00000001
00000006
00000019
00000018
0000001d
00000009
00000005
00000001
00000019
00000008
00000008
00000018
0000001f
00000018
00000005
0000001f
00000001
0000001a
00000017
0000001c
00000006
00000009
0000001a
00000001
00000003
0000001f
00000004
00000002
00000008
00000004
00000006
00000004
00000009
0000001f
0000001a
00000003
00000004
00000007
0000001c
00000018
00000007
00000001
0000001f
00000002
0000001f
00000018
00000003
00000003
0000001f
00000001
00000006
00000008
00000004
0000001c
0000001d
0000001c
00000001
0000001a
0000001c
0000001c
00000018
00000004
00000009
0000001e
00000002
0000001f
00000008
00000009
00000006
00000018
00000009
00000017
0000001c
00000006
00000017
00000001
00000004
0000001f
0000001f
0000001f
00000004
0000001f
00000017
0000001d
00000001
00000005
0000001d
0000001f
00000003
00000018
00000007
0000001a
0000001f
00000019
00000005
0000001a
0000001a
00000001
00000008
00000018
00000005
0000001d
0000001f
00000001
00000018
00000003
00000018
0000001a
00000002
00000005
0000001b
0000001f
00000019
00000005
00000019
00000009
00000008
00000009
00000009
00000005
00000019
00000017
00000001
00000018
00000007
00000018
00000018
00000002
0000001f
00000006
00000007
00000007
0000001f
00000006
00000008
00000008
00000006
00000007
00000004
0000001d
00000009
00000009
00000017
00000018
00000007
00000009
00000005
00000006
0000001b
0000001e
00000003
0000001c
0000001f
00000019
0000001e
00000002
00000001
0000001a
00000009
00000017
0000001f
00000008
00000008
00000008
0000001e
00000003
00000018
0000001e
00000018
00000008
0000001f
00000017
00000017
00000002
0000001f
00000009
00000001
0000001c
00000018
00000003
00000017
00000003
00000009
0000001b
00000001
0000001a
0000001b
0000001c
00000007
00000009
00000006
00000006
00000004
0000001b
00000005
00000002
0000001a
0000001c
00000017
0000001f
00000001
0000001f
0000001a
00000001
00000018
00000006
0000001a
00000004
00000008
0000001b
00000005
00000001
0000001d
0000001d
00000001
0000001a
0000001c
00000002
00000005
0000001b
00000004
00000009
0000001e
0000001a
00000001
00000001
00000001
00000004
00000004
00000017
0000001e
00000003
00000019
00000005
00000017
0000001d
00000006
00000018
0000001c
00000004
0000001e
00000009
0000001d
00000009
0000001b
0000001b
0000001c
0000001f
00000017
00000004
00000001
0000001e
00000001
00000009
0000001d
00000001
00000002
0000001d
00000019
0000001d
00000003
00000006
00000006
0000001a
00000017
00000005
00000009
0000001b
0000001c
00000017
00000002
00000009
00000001
0000001f
00000001
0000001e
0000001c
00000006
0000001f
00000007
0000001b
00000004
0000001a
0000001d
00000002
00000003
00000003
00000005
00000017
00000019
00000003
00000017
00000009
0000001e
00000018
00000001
00000008
00000009
0000001e
0000001d
0000001a
00000008
00000001
0000001f
00000006
0000001c
00000019
00000002
0000001e
0000001c
0000001f
00000019
0000001d
00000017
00000018
0000001e
0000001a
0000001e
00000009
00000004
0000001f
0000001c
00000019
00000005
00000006
0000001e
0000001a
00000017
00000019
0000001a
00000018
00000002
0000001e
00000007
0000001f
00000006
00000019
00000004
00000018
00000003
00000002
0000001c
00000019
00000019
00000002
0000001e
0000001f
00000003
00000008
0000001f
0000001e
00000019
00000009
0000001f
00000009
0000001e
00000005
00000018
00000007
00000003
0000001f
0000001c
0000001b
00000019
00000017
00000009
0000001c
00000002
00000006
0000001c
0000001f
00000001
0000001b
00000005
00000006
00000017
0000001a
00000003
0000001f
0000001f
0000001a
0000001e
0000001b
00000001
0000001c
00000007
00000001
0000001f
00000009
00000017
00000004
00000009
00000008
00000018
00000017
00000009
0000001d
00000008
00000006
00000018
0000001a
0000001b
00000005
00000006
00000002
0000001f
00000004
00000008
0000001f
00000017
00000005
00000007
0000001d
0000001f
00000006
0000001d
00000009
00000007
00000005
00000001
00000001
0000001a
0000001a
0000001a
00000006
0000001d
00000003
0000001a
00000001
0000001f
0000001c
00000001
0000001e
0000001d
00000002
00000001
00000002
0000001d
00000001
00000008
00000008
0000001a
00000002
00000017
0000001d
00000019
00000018
0000001f
0000001f
00000003
00000018
0000001e
00000017
00000017
00000002
00000007
00000003
0000001d
00000008
0000001a
00000009
0000001a
00000003
0000001e
00000002
00000018
00000019
0000001c
00000007
00000006
00000018
00000002
00000004
00000002
0000001e
0000001c
00000003
0000001c
00000006
0000001e
0000001c
00000018
00000003
00000003
00000017
00000001
00000018
0000001f
00000008
0000001f
0000001c
0000001d
0000001b
0000001f
00000006
00000003
0000001a
00000017
0000001e
0000001f
00000001
00000007
00000018
0000001f
00000005
00000017
0000001e
00000007
0000001f
00000018
0000001d
00000004
00000004
0000001e
00000006
00000008
00000009
0000001f
00000005
0000001a
00000001
0000001d
00000008
00000001
00000018
00000004
0000001e
0000001c
00000001
00000002
00000003
00000004
00000005
00000002
00000009
00000007
00000009
00000004
00000008
00000004
00000003
00000017
00000006
00000002
0000001e
00000001
00000006
00000005
00000019
00000018
0000001e
0000001f
00000002
0000001d
00000007
00000019
00000017
00000018
00000002
00000003
0000001b
0000001d
00000009
00000018
0000001c
00000006
00000009
00000006
00000005
0000001b
0000001e
00000001
0000001d
00000001
00000009
00000002
00000003
00000004
0000001d
0000001d
0000001a
0000001a
00000004
00000006
0000001e
00000009
00000017
0000001a
0000001b
00000019
0000001f
0000001f
0000001b
0000001e
00000018
0000001f
0000001a
00000006
00000004
00000003
0000001f
00000004
0000001f
00000019
00000004
00000008
0000001c
00000004
0000001e
0000001a
00000005
00000003
0000001a
00000006
00000002
0000001b
00000009
00000006
0000001f
0000001c
00000019
00000007
0000001f
00000008
00000007
00000017
00000017
0000001f
0000001c
00000003
00000001
0000001b
00000006
00000002
00000002
00000009
00000001
00000018
00000018
00000009
00000001
00000002
0000001a
00000019
0000001b
0000001f
0000001d
00000008
00000006
0000001c
0000001f
00000004
00000002
00000017
00000005
00000007
00000004
0000001a
0000001c
0000001a
00000007
00000007
00000001
0000001a
0000001f
0000001b
00000001
00000002
00000006
00000001
00000005
00000006
00000017
00000001
00000006
00000002
00000005
00000001
0000001d
0000001a
00000006
0000001b
00000001
0000001f
00000001
0000001b
00000009
0000001e
00000001
00000017
00000005
0000001a
0000001c
0000001f
0000001a
00000001
00000005
0000001c
00000001
00000017
0000001e
00000005
00000008
00000018
00000017
00000005
00000007
0000001d
0000001d
0000001b
0000001a
0000001e
00000009
00000007
0000001c
00000019
00000002
00000019
00000019
00000008
0000001f
00000002
0000001c
0000001e
00000009
00000001
0000001c
00000002
00000001
0000001f
0000001c
00000002
0000001f
00000005
00000001
0000001e
00000017
0000001e
00000008
0000001a
00000001
00000009
0000001c
0000001c
00000004
00000017
0000001a
00000019
0000001f
00000003
00000008
0000001f
0000001a
0000001f
00000018
00000005
0000001d
0000001f
0000001f
00000007
00000001
00000007
00000005
0000001f
00000007
0000001f
00000006
00000008
0000001a
00000004
00000003
00000019
00000001
00000004
00000005
00000002
00000004
00000017
00000006
00000017
00000007
00000002
00000007
00000008
0000001c
00000009
00000004
00000018
00000006
0000001d
0000001a
00000003
00000005
0000001e
00000017
00000007
00000007
00000002
00000007
0000001a
00000004
00000017
00000006
0000001d
00000004
00000001
00000008
00000002
0000001f
0000001b
0000001d
00000017
00000018
00000002
00000001
0000001f
00000004
00000001
00000007
00000002
00000007
00000005
00000018
00000002
00000008
00000009
0000001f
0000001d
00000001
00000007
0000001b
00000001
00000006
00000006
0000001b
00000006
00000019
00000004
00000005
00000001
0000001f
0000001c
00000009
00000019
0000001b
00000001
0000001c
00000002
0000001c
00000005
00000005
00000007
00000017
00000007
0000001c
00000003
00000001
00000006
00000009
00000004
00000018
00000004
0000001b
00000001
00000019
0000001a
00000004
00000001
0000001f
00000003
00000008
00000003
00000007
00000018
0000001a
00000017
00000004
00000002
00000019
0000001f
00000005
0000001f
00000008
00000008
00000003
0000001f
00000019
00000003
00000005
00000007
00000001
00000007
00000002
0000001f
00000001
00000007
00000008
0000001c
00000001
0000001f
0000001e
0000001f
00000019
0000001f
0000001f
0000001b
0000001f
0000001c
00000003
00000008
00000006
00000008
0000001c
00000007
00000017
0000001a
00000001
0000001f
00000003
00000003
00000007
00000009
0000001b
0000001b
00000018
00000017
00000004
0000001d
00000019
0000001e
00000009
0000001d
0000001b
0000001c
00000018
00000006
00000007
00000002
00000006
0000001f
0000001d
00000004
00000001
00000003
00000001
00000018
00000005
0000001f
0000001d
0000001a
0000001d
00000002
00000006
00000005
00000006
0000001c
00000006
00000004
0000001b
0000001a
00000004
00000001
0000001a
00000004
0000001e
0000001d
0000001d
00000001
0000001e
0000001f
00000008
0000001f
00000004
0000001c
00000019
00000008
00000007
0000001b
0000001f
00000008
00000001
00000009
00000007
00000007
00000003
00000003
00000019
00000008
00000008
0000001e
00000019
0000001f
00000008
00000002
00000001
00000001
0000001a
00000002
00000002
00000005
00000018
00000005
0000001b
00000019
00000009
0000001f
00000019
0000001d
00000002
00000005
00000018
00000018
00000019
0000001e
0000001c
0000001e
00000009
00000019
0000001c
0000001a
00000018
0000001a
00000005
0000001a
0000001c
00000004
00000002
0000001f
00000017
0000001c
00000003
00000009
00000004
00000007
0000001f
00000018
0000001f
00000001
00000009
00000018
0000001b
00000017
0000001e
00000001
0000001c
0000001f
00000006
00000019
00000017
00000006
00000018
00000001
00000004
00000002
00000019
00000017
00000001
0000001f
00000005
0000001f
0000001b
00000018
00000009
0000001e
0000001d
00000006
00000001
00000005
00000002
00000017
0000001f
00000008
0000001a
00000004
00000009
0000001d
00000001
00000001
0000001f
00000001
00000019
0000001f
0000001f
00000018
0000001f
0000001d
00000001
00000008
00000017
0000001e
00000007
0000001c
0000001a
00000003
00000018
0000001b
0000001f
00000008
00000018
0000001f
00000006
00000003
00000018
0000001b
00000018
0000001e
0000001f
0000001d
0000001d
00000007
00000001
0000001a
00000001
0000001f
00000002
00000003
00000018
0000001f
00000007
0000001f
00000004
00000001
00000007
00000006
00000006
0000001c
00000007
0000001d
00000004
0000001d
0000001e
00000008
00000018
0000001d
00000005
0000001e
00000004
00000019
00000007
0000001f
00000002
00000006
00000005
0000001d
0000001d
0000001d
00000019
00000004
0000001f
0000001f
00000003
0000001c
00000009
00000018
0000001f
00000003
00000006
00000004
0000001d
0000001f
0000001a
00000002
0000001c
00000007
00000017
0000001c
0000001c
00000006
0000001a
0000001d
00000018
00000018
0000001f
00000001
00000006
00000003
00000019
00000001
00000017
00000001
00000002
0000001b
00000001
0000001f
00000009
0000001f
00000001
0000001b
0000001b
00000001
00000018
00000017
0000001a
00000003
00000019
0000001b
00000017
00000001
00000008
00000007
00000019
00000008
0000001f
0000001c
00000002
00000003
00000007
00000001
00000017
00000009
0000001e
0000001b
00000008
00000009
0000001c
0000001f
00000008
0000001e
00000008
0000001e
00000019
00000008
0000001f
0000001d
0000001f
0000001e
00000017
00000006
00000008
0000001e
00000019
00000006
0000001b
00000001
00000005
0000001b
00000001
0000001f
00000007
00000003
00000001
00000007
00000006
0000001f
0000001e
0000001c
00000001
0000001f
0000001f
00000017
00000017
0000001a
00000017
00000007
00000004
0000001b
0000001d
0000001e
00000009
0000001c
00000003
00000019
00000007
0000001f
0000001d
00000019
00000019
0000001b
00000004
0000001d
00000002
0000001d
00000007
00000005
0000001d
00000017
0000001f
0000001d
00000009
0000001f
00000009
00000017
00000004
00000007
0000001f
00000005
00000005
00000004
0000001b
0000001f
00000009
00000018
00000002
0000001f
0000001b
0000001a
00000019
00000006
0000001f
00000001
00000001
00000019
00000004
0000001d
0000001e
0000001e
00000007
0000001f
0000001c
0000001f
00000009
00000008
0000001d
0000001f
0000001f
00000008
00000019
00000019
0000001b
00000007
0000001f
00000005
00000001
00000005
00000002
0000001f
00000001
00000019
00000004
0000001d
0000001e
0000001f
00000002
00000001
0000001c
00000004
00000008
00000019
00000019
00000003
00000019
00000002
00000017
00000001
0000001d
00000005
0000001b
00000018
00000007
00000017
00000008
00000017
0000001f
00000007
00000008
00000002
0000001f
00000018
0000001a
00000001
00000004
00000001
0000001d
00000018
0000001b
00000002
00000001
00000017
00000001
00000001
00000017
0000001e
00000003
0000001b
00000018
00000018
0000001b
0000001d
00000004
00000017
0000001f
00000005
0000001c
0000001a
00000018
00000017
00000008
00000006
00000001
0000001c
00000007
0000001c
0000001a
00000001
00000007
00000017
00000003
00000018
0000001f
0000001b
00000017
0000001a
00000009
00000001
0000001a
00000002
00000017
00000009
0000001e
00000008
00000019
0000001c
00000001
0000001c
0000001c
0000001f
00000001
00000003
0000001b
0000001a
0000001c
00000003
00000002
00000009
0000001f
00000008
00000005
00000005
00000006
00000019
0000001a
0000001f
00000002
00000001
00000005
00000018
00000018
00000008
0000001c
0000001c
0000001b
0000001f
00000009
00000003
00000001
0000001e
0000001f
00000019
0000001c
00000007
00000002
00000002
0000001f
0000001f
00000008
00000008
0000001b
0000001e
00000001
0000001b
0000001c
00000008
0000001a
00000005
00000008
0000001f
00000019
0000001e
0000001a
00000005
0000001a
0000001c
00000007
00000017
0000001f
00000017
00000009
00000005
0000001f
00000002
00000002
00000008
0000001a
00000002
0000001f
00000001
0000001e
00000005
00000007
0000001c
00000006
00000002
0000001e
0000001c
0000001d
0000001a
00000009
0000001b
00000007
00000009
0000001f
0000001f
0000001e
0000001a
00000007
00000017
00000009
0000001b
00000002
00000005
00000007
00000017
0000001a
00000003
0000001f
00000018
00000018
00000001
00000009
00000007
00000007
00000009
00000019
00000006
00000002
00000004
00000002
00000002
0000001e
0000001d
0000001e
00000007
00000002
00000001
00000019
00000008
00000005
0000001d
00000008
0000001f
00000005
00000007
00000018
00000009
00000009
00000001
00000018
0000001e
0000001d
00000017
0000001a
00000001
00000004
0000001b
00000019
00000006
00000009
0000001a
00000018
00000001
00000004
0000001a
00000002
00000017
00000018
00000006
00000008
00000006
00000003
0000001d
00000002
0000001f
00000003
00000019
0000001f
00000002
00000009
00000006
00000006
00000003
0000001f
0000001d
00000019
00000001
0000001b
0000001c
0000001c
00000002
0000001a
00000004
0000001e
0000001c
0000001b
0000001c
00000009
00000007
00000007
0000001d
0000001c
00000019
0000001d
0000001e
00000017
00000008
00000009
00000001
00000007
00000017
00000002
00000017
0000001e
0000001c
00000018
0000001d
00000004
00000004
00000002
00000003
0000001c
00000017
00000009
00000005
00000005
00000002
00000002
00000009
00000002
00000008
00000017
0000001f
00000002
00000018
00000003
0000001b
00000001
0000001a
0000001f
00000018
00000001
0000001f
0000001f
0000001e
00000001
00000002
00000002
00000003
00000006
0000001a
0000001a
0000001d
00000006
00000008
0000001d
00000009
00000003
00000007
00000005
00000008
0000001a
00000018
0000001f
00000008
00000008
00000009
0000001a
00000002
00000009
00000017
0000001b
00000003
0000001d
0000001c
0000001a
0000001b
0000001d
0000001e
00000008
0000001c
00000001
0000001d
00000003
0000001f
0000001e
0000001e
00000008
0000001b
00000009
0000001d
0000001d
0000001f
00000009
00000009
00000002
00000002
00000018
00000019
00000001
00000005
00000008
0000001f
00000019
00000017
0000001a
0000001e
00000001
0000001c
0000001c
00000001
00000006
00000018
00000006
00000009
00000017
00000004
0000001e
0000001f
0000001b
0000001f
0000001e
00000018
00000017
0000001c
00000007
0000001b
0000001c
00000005
00000017
00000002
00000006
00000001
0000001f
00000003
0000001f
0000001d
0000001c
00000019
00000006
00000008
00000007
0000001f
00000008
00000009
00000018
00000007
00000002
00000006
0000001a
00000002
00000018
00000008
00000008
00000002
0000001f
00000005
0000001a
0000001f
0000001e
00000019
0000001a
00000019
0000001f
00000003
00000001
00000008
00000018
00000018
00000004
0000001a
0000001b
0000001c
00000001
0000001f
00000004
00000001
00000008
00000019
0000001a
00000005
0000001e
00000001
0000001f
00000001
0000001f
0000001f
0000001f
00000001
0000001f
0000001b
00000001
0000001a
00000017
00000007
00000003
00000006
00000004
00000002
00000007
00000007
0000001a
0000001f
0000001a
00000009
00000003
00000001
0000001f
00000019
00000019
0000001f
00000003
00000006
0000001a
00000003
00000006
00000001
0000001f
00000017
0000001f
00000019
00000005
00000003
00000005
0000001e
00000005
00000008
00000003
00000017
00000006
0000001c
00000017
0000001a
0000001b
0000001e
00000004
00000002
0000001a
0000001f
00000004
00000006
00000017
0000001f
00000003
00000017
0000001e
0000001f
0000001f
0000001f
00000001
0000001a
0000001c
00000009
00000005
0000001a
00000019
00000009
0000001e
0000001d
00000001
00000001
00000001
0000001d
0000001e
00000004
00000003
0000001b
0000001f
00000008
00000009
00000004
00000003
0000001a
00000006
0000001b
00000009
00000006
0000001e
0000001a
00000003
00000006
00000007
00000017
00000008
0000001c
0000001b
00000006
0000001c
00000017
00000019
00000009
00000018
0000001f
00000018
0000001c
00000005
0000001a
00000017
0000001a
0000001c
0000001f
00000003
00000019
00000018
00000009
00000006
0000001d
0000001d
0000001f
00000005
00000018
00000001
00000009
00000006
00000003
00000007
0000001a
00000003
00000001
0000001f
0000001f
00000009
00000008
00000019
0000001a
0000001e
00000017
0000001f
00000003
00000001
00000017
00000017
00000009
0000001f
00000005
00000019
00000008
0000001a
0000001c
00000001
0000001b
00000004
0000001c
00000006
00000002
00000005
0000001c
0000001f
00000003
00000007
0000001f
00000007
0000001c
00000002
00000001
00000007
0000001f
0000001e
00000017
0000001c
00000018
00000008
00000019
0000001b
00000007
00000007
00000001
00000017
0000001b
00000007
00000005
00000009
00000001
00000007
0000001d
00000006
00000003
00000018
00000017
00000008
0000001d
0000001f
00000001
00000019
0000001f
0000001f
0000001f
00000006
0000001f
00000003
00000004
0000001f
00000004
00000001
0000001f
0000001d
00000002
00000006
00000005
0000001f
0000001c
00000005
00000005
00000002
00000001
00000018
00000003
00000001
0000001c
0000001d
00000005
00000018
0000001e
00000001
00000005
0000001f
0000001f
0000001d
00000018
0000001f
0000001d
00000006
00000001
0000001c
0000001b
00000001
0000001e
00000002
00000005
0000001c
0000001b
0000001c
00000003
00000009
00000004
00000001
00000005
00000001
00000001
00000001
00000017
00000007
00000002
0000001f
00000001
0000001e
00000003
00000001
00000004
00000002
00000019
00000006
00000017
00000019
00000005
0000001c
0000001d
00000001
00000007
0000001e
00000005
0000001c
00000004
00000004
00000002
00000019
0000001d
00000001
00000009
00000005
0000001c
00000001
00000007
00000005
0000001b
0000001d
0000001f
00000004
00000003
00000001
00000018
0000001f
00000004
00000001
0000001d
00000008
00000018
00000017
0000001c
00000001
00000019
00000005
00000017
00000009
0000001b
00000003
0000001c
00000007
00000019
00000002
00000001
00000002
0000001f
00000002
00000001
00000017
00000008
00000006
0000001d
00000001
0000001b
00000004
00000008
00000006
00000001
0000001f
00000005
00000019
0000001b
0000001f
00000003
00000019
00000019
00000019
00000019
0000001f
0000001d
0000001e
0000001c
0000001e
00000018
00000009
0000001f
0000001f
00000018
00000002
00000001
00000005
00000007
0000001b
00000003
00000007
00000006
00000008
0000001e
0000001c
0000001e
00000002
00000006
00000017
00000017
00000018
00000019
00000001
00000001
00000008
00000001
0000001d
0000001f
0000001f
0000001e
00000007
00000007
00000007
0000001d
00000007
00000006
00000001
00000007
0000001d
0000001f
00000017
00000004
00000004
00000001
0000001b
0000001b
00000001
0000001b
0000001e
00000018
00000019
00000004
0000001a
00000004
00000001
00000009
0000001c
00000002
00000002
0000001c
00000001
00000005
0000001f
0000001e
00000007
0000001b
0000001a
00000004
0000001d
00000004
00000005
00000001
00000019
0000001b
00000005
00000006
0000001e
00000018
0000001b
0000001f
0000001f
00000006
0000001c
00000018
00000009
0000001f
00000005
00000002
0000001f
0000001d
0000001b
0000001a
00000005
00000003
0000001f
00000017
00000006
00000002
0000001a
0000001a
0000001a
00000007
0000001a
0000001e
0000001d
0000001f
0000001b
00000017
00000009
00000003
0000001f
00000018
00000007
00000005
0000001e
0000001a
00000006
0000001f
00000001
00000005
00000001
00000001
00000017
00000009
00000001
0000001a
00000019
00000003
00000001
00000005
00000007
00000003
0000001c
00000008
00000006
00000008
00000001
0000001c
0000001b
0000001d
00000009
00000017
0000001e
0000001b
00000009
00000006
00000007
00000002
00000001
00000017
00000007
0000001c
00000017
00000017
00000004
00000019
0000001f
00000008
00000002
0000001e
00000001
0000001d
00000019
00000017
00000018
0000001b
0000001d
0000001f
00000019
00000018
00000017
0000001d
00000001
00000001
0000001e
00000004
0000001c
00000007
0000001f
00000018
00000005
0000001d
00000001
0000001f
00000009
00000017
00000017
00000001
00000002
00000001
00000019
0000001e
00000017
00000008
00000008
00000003
00000003
00000004
0000001c
00000001
0000001f
0000001d
0000001f
00000005
00000009
0000001b
00000002
0000001a
0000001c
00000001
0000001c
0000001a
00000003
00000003
0000001b
00000001
00000002
0000001f
00000002
00000004
00000001
00000018
00000007
0000001e
0000001d
00000008
0000001c
00000007
00000006
00000017
00000018
0000001d
00000001
0000001f
00000003
00000001
0000001d
0000001e
0000001f
0000001e
00000002
00000004
00000008
00000003
00000001
00000004
00000006
0000001f
00000004
00000009
0000001c
0000001a
00000019
0000001d
0000001a
00000001
0000001f
00000002
00000018
0000001e
00000005
00000007
0000001f
0000001f
0000001a
00000001
00000017
0000001e
00000007
00000006
0000001f
0000001f
0000001b
0000001c
00000009
00000006
00000005
00000009
0000001a
00000003
0000001c
00000019
00000006
0000001d
00000009
00000003
00000006
0000001c
0000001f
0000001f
0000001c
00000002
00000006
00000001
0000001b
0000001c
00000017
0000001f
00000006
00000001
00000001
00000003
00000018
00000001
00000001
00000003
0000001c
00000019
00000001
0000001e
00000001
0000001a
00000001
0000001f
00000004
00000008
0000001d
0000001b
00000002
0000001a
00000017
0000001d
00000018
00000009
0000001d
00000009
0000001d
0000001b
00000005
0000001e
00000002
00000007
00000006
0000001f
00000002
0000001b
0000001f
00000019
00000001
00000019
00000003
00000002
00000001
00000003
00000001
0000001d
00000008
0000001f
0000001b
00000003
0000001d
0000001f
0000001d
00000007
00000001
00000001
00000019
00000018
00000018
00000003
00000005
0000001a
00000002
0000001f
0000001e
0000001a
00000005
00000001
00000002
00000006
0000001d
00000006
0000001f
00000009
00000001
00000006
00000018
00000009
00000007
0000001f
00000005
00000002
00000004
00000018
00000006
0000001c
00000009
0000001d
00000018
00000001
0000001f
0000001c
00000003
00000019
0000001e
00000017
0000001f
0000001e
0000001d
00000008
00000002
00000018
0000001d
0000001d
00000018
00000019
00000003
00000018
00000007
0000001c
0000001e
0000001b
0000001b
00000018
00000007
0000001f
00000018
00000002
00000001
00000001
00000018
00000005
00000019
0000001c
0000001b
00000003
00000017
00000001
00000005
0000001f
0000001d
00000007
00000003
00000003
0000001d
0000001b
00000001
00000004
00000004
0000001a
0000001b
0000001d
0000001a
0000001e
00000005
0000001f
00000002
00000004
0000001d
00000001
0000001b
0000001b
00000001
00000004
0000001f
00000003
00000001
00000005
00000002
00000004
00000001
00000007
00000005
00000009
0000001a
00000017
00000017
00000017
0000001f
0000001a
00000004
00000007
0000001d
0000001b
00000007
0000001a
00000001
00000017
0000001e
00000007
00000004
00000008
00000009
00000008
0000001e
00000002
0000001d
00000002
00000002
00000006
0000001f
00000017
00000001
00000003
00000003
0000001e
00000004
00000001
00000007
00000008
00000019
0000001e
00000004
00000005
00000002
00000005
0000001f
00000004
00000003
00000003
00000005
00000019
00000002
0000001d
00000019
00000007
0000001b
00000001
0000001f
0000001d
00000017
00000001
00000018
00000019
00000007
00000008
0000001e
00000017
00000001
0000001d
00000004
00000017
0000001e
0000001c
0000001b
00000001
0000001b
00000018
00000006
0000001b
00000003
00000008
0000001b
0000001a
0000001f
00000019
00000017
0000001d
00000003
00000003
0000001c
00000006
00000007
00000002
00000005
00000005
0000001f
00000007
0000001f
0000001d
00000002
0000001b
0000001f
00000008
00000004
00000017
00000019
0000001a
00000006
00000001
00000009
00000003
00000001
00000018
00000002
0000001a
0000001e
00000017
00000007
00000009
0000001f
00000009
0000001c
00000002
00000009
0000001f
0000001f
00000007
0000001e
00000009
00000008
0000001b
0000001e
00000004
00000002
0000001f
00000017
00000009
00000002
0000001f
00000005
00000001
00000007
0000001e
0000001b
00000006
00000007
00000017
00000004
00000009
0000001c
00000004
00000008
00000019
00000008
00000018
00000007
00000009
0000001d
0000001c
00000001
0000001a
00000018
00000004
00000007
0000001b
0000001f
00000006
00000005
00000001
00000003
00000001
0000001d
00000019
00000002
00000006
00000017
00000019
00000019
00000001
0000001c
00000006
00000001
00000005
00000006
00000019
0000001c
00000002
00000009
0000001b
0000001c
00000009
00000007
00000009
00000002
00000003
00000007
0000001f
0000001f
00000017
00000001
0000001f
00000005
00000001
00000017
00000003
0000001f
0000001a
00000019
0000001e
00000001
0000001a
0000001a
00000018
0000001d
00000009
00000008
00000017
00000006
0000001a
0000001e
00000003
00000017
0000001f
00000019
00000003
00000001
0000001d
00000001
00000008
00000019
0000001f
0000001f
00000005
00000017
00000007
00000001
00000005
00000008
00000017
0000001e
0000001e
0000001a
00000019
00000006
00000007
00000001
0000001f
0000001f
0000001e
00000001
00000006
0000001c
0000001f
00000017
0000001d
00000001
0000001e
00000009
00000006
00000001
00000007
00000001
0000001d
00000003
00000019
00000008
00000001
00000007
00000001
00000018
00000018
0000001b
0000001c
00000018
0000001f
00000003
0000001b
00000005
0000001f
00000017
00000005
00000008
0000001b
0000001f
0000001d
00000002
00000004
00000019
0000001b
00000001
00000018
00000007
0000001b
00000019
00000005
0000001e
00000018
00000006
0000001f
0000001f
0000001d
0000001f
00000004
00000007
00000006
0000001f
0000001a
00000009
00000005
0000001d
00000003
00000008
0000001f
00000009
00000003
00000006
00000006
0000001a
0000001a
00000019
00000001
0000001b
00000001
00000006
0000001b
00000008
00000018
00000001
00000009
00000001
0000001b
00000017
00000006
00000006
0000001d
0000001f
0000001d
00000018
0000001f
00000018
00000003
00000005
00000001
00000002
00000002
0000001f
00000007
00000004
00000006
0000001a
00000001
0000001d
00000018
00000007
0000001a
0000001f
0000001f
00000001
00000007
0000001f
00000001
00000001
0000001b
0000001b
00000018
0000001d
00000005
00000018
0000001d
00000007
00000006
0000001a
00000001
0000001e
00000008
00000008
00000019
0000001e
0000001e
0000001e
00000003
00000007
0000001b
0000001d
0000001d
00000018
0000001f
0000001a
00000001
00000018
00000006
0000001f
0000001f
00000017
00000017
00000007
00000002
00000006
00000007
0000001f
00000018
0000001c
00000007
00000005
0000001f
00000009
0000001f
0000000f
0000000f
00000011
0000000f
0000000f
0000000f
00000011
00000004
0000001e
0000000f
0000000f
0000000f
00000011
0000000f
00000011
0000001f
00000011
00000002
00000011
00000011
0000000e
00000011
0000000a
00000011
00000011
0000001a
00000011
00000011
0000000f
0000000f
0000001f
00000018
00000017
00000003
00000003
00000018
0000001a
00000011
0000000f
00000001
00000011
00000016
00000011
0000000f
0000000f
00000011
00000011
00000009
00000004
00000004
00000014
0000001f
00000001
00000011
0000000f
00000011
00000011
00000009
00000011
0000000f
0000000f
00000011
00000011
00000011
00000011
0000000f
00000011
0000000f
00000007
0000000f
00000006
00000006
0000000f
0000000f
00000011
00000011
0000000f
0000001f
00000011
0000000b
0000000f
0000000f
00000006
00000011
0000000f
0000000f
0000000f
00000019
0000001c
00000015
00000011
0000001e
0000000f
0000000f
0000000f
0000001c
00000011
00000013
00000011
00000016
0000000f
0000001f
0000000f
0000000c
00000011
0000000f
0000000b
00000006
00000011
0000000f
0000000d
00000011
00000011
0000000f
0000000f
00000011
00000011
00000011
0000000f
0000000f
00000011
0000001a
00000013
00000011
00000013
00000011
00000001
0000000f
00000007
00000011
00000019
0000000f
00000001
00000011
0000000c
00000017
0000000b
00000011
0000000f
00000011
0000000f
0000000f
0000000f
00000003
0000000d
00000018
00000011
00000013
00000011
0000001b
0000000f
0000000f
00000001
0000001f
00000001
0000000f
00000011
0000000f
00000011
00000011
